<?xml version="1.0"?>
<opencv_storage>
<stage1>
  <maxWeakCount>27</maxWeakCount>
  <stageThreshold>-4.3160197138786316e-001</stageThreshold>
  <weakClassifiers>
    <_>
      <internalNodes>
        0 -1 4582 9.1018229722976685e-002</internalNodes>
      <leafValues>
        -2.1624714136123657e-001 5.0114154815673828e-001</leafValues></_>
    <_>
      <internalNodes>
        0 -1 42210 7.3648557066917419e-002</internalNodes>
      <leafValues>
        1.5871724486351013e-001 -6.5874731540679932e-001</leafValues></_>
    <_>
      <internalNodes>
        0 -1 110599 -1.6512311995029449e-003</internalNodes>
      <leafValues>
        -4.4543364644050598e-001 1.5669059753417969e-001</leafValues></_>
    <_>
      <internalNodes>
        0 -1 110604 3.3761414233595133e-003</internalNodes>
      <leafValues>
        5.3804285824298859e-002 -6.2133312225341797e-001</leafValues></_>
    <_>
      <internalNodes>
        0 -1 1103 -6.3270545005798340e-001</internalNodes>
      <leafValues>
        -6.6851377487182617e-001 6.2915809452533722e-002</leafValues></_>
    <_>
      <internalNodes>
        0 -1 118974 3.9979556459002197e-004</internalNodes>
      <leafValues>
        1.2158928811550140e-001 -3.7778192758560181e-001</leafValues></_>
    <_>
      <internalNodes>
        0 -1 112191 -3.3875592052936554e-003</internalNodes>
      <leafValues>
        -4.4407466053962708e-001 9.4778478145599365e-002</leafValues></_>
    <_>
      <internalNodes>
        0 -1 113072 3.2721681054681540e-004</internalNodes>
      <leafValues>
        1.5220397710800171e-001 -3.3304765820503235e-001</leafValues></_>
    <_>
      <internalNodes>
        0 -1 124307 -3.0829051975160837e-003</internalNodes>
      <leafValues>
        -3.8462740182876587e-001 1.0796284675598145e-001</leafValues></_>
    <_>
      <internalNodes>
        0 -1 137120 -2.6001683436334133e-003</internalNodes>
      <leafValues>
        -4.0583470463752747e-001 1.0929148644208908e-001</leafValues></_>
    <_>
      <internalNodes>
        0 -1 146564 3.2469049096107483e-002</internalNodes>
      <leafValues>
        -1.4773041009902954e-001 3.1882563233375549e-001</leafValues></_>
    <_>
      <internalNodes>
        0 -1 69093 -7.7189266681671143e-002</internalNodes>
      <leafValues>
        6.3875019550323486e-001 -7.0064388215541840e-002</leafValues></_>
    <_>
      <internalNodes>
        0 -1 12001 -3.6843799054622650e-002</internalNodes>
      <leafValues>
        4.3803659081459045e-001 -8.1961303949356079e-002</leafValues></_>
    <_>
      <internalNodes>
        0 -1 38799 2.8599804639816284e-001</internalNodes>
      <leafValues>
        -8.2587458193302155e-002 5.1436626911163330e-001</leafValues></_>
    <_>
      <internalNodes>
        0 -1 131805 -3.5137141821905971e-004</internalNodes>
      <leafValues>
        -2.5864681601524353e-001 1.2372216582298279e-001</leafValues></_>
    <_>
      <internalNodes>
        0 -1 126063 -3.9254856528714299e-004</internalNodes>
      <leafValues>
        -2.5338399410247803e-001 1.4036369323730469e-001</leafValues></_>
    <_>
      <internalNodes>
        0 -1 50152 1.6599880158901215e-001</internalNodes>
      <leafValues>
        4.4204454869031906e-002 -6.8721866607666016e-001</leafValues></_>
    <_>
      <internalNodes>
        0 -1 126499 4.2518239468336105e-002</internalNodes>
      <leafValues>
        -9.2068322002887726e-002 3.6319413781166077e-001</leafValues></_>
    <_>
      <internalNodes>
        0 -1 132026 1.1082818964496255e-003</internalNodes>
      <leafValues>
        1.2912540137767792e-001 -2.3567652702331543e-001</leafValues></_>
    <_>
      <internalNodes>
        0 -1 118637 -1.0703613515943289e-003</internalNodes>
      <leafValues>
        -2.7178660035133362e-001 1.0941389948129654e-001</leafValues></_>
    <_>
      <internalNodes>
        0 -1 76003 -4.4093184173107147e-002</internalNodes>
      <leafValues>
        4.5194643735885620e-001 -7.2677776217460632e-002</leafValues></_>
    <_>
      <internalNodes>
        0 -1 147706 -7.4620096711441875e-004</internalNodes>
      <leafValues>
        -2.1265855431556702e-001 1.4166116714477539e-001</leafValues></_>
    <_>
      <internalNodes>
        0 -1 13067 -1.3133917935192585e-002</internalNodes>
      <leafValues>
        3.0046811699867249e-001 -1.0380534827709198e-001</leafValues></_>
    <_>
      <internalNodes>
        0 -1 13214 9.7822947427630424e-003</internalNodes>
      <leafValues>
        -8.2753457129001617e-002 3.4842279553413391e-001</leafValues></_>
    <_>
      <internalNodes>
        0 -1 114067 5.9935431927442551e-002</internalNodes>
      <leafValues>
        -3.6967925727367401e-002 7.6977515220642090e-001</leafValues></_>
    <_>
      <internalNodes>
        0 -1 131819 -2.3711812682449818e-003</internalNodes>
      <leafValues>
        -3.4096345305442810e-001 9.1917701065540314e-002</leafValues></_>
    <_>
      <internalNodes>
        0 -1 126983 -1.8323479220271111e-002</internalNodes>
      <leafValues>
        2.4943716824054718e-001 -1.2322207540273666e-001</leafValues></_></weakClassifiers></stage1>
</opencv_storage>
