<?xml version="1.0"?>
<opencv_storage>
<stage4>
  <maxWeakCount>50</maxWeakCount>
  <stageThreshold>-3.8994538784027100e-001</stageThreshold>
  <weakClassifiers>
    <_>
      <internalNodes>
        0 -1 117591 -2.4157583713531494e-002</internalNodes>
      <leafValues>
        2.8768172860145569e-001 -2.8442436456680298e-001</leafValues></_>
    <_>
      <internalNodes>
        0 -1 4452 4.0983594954013824e-002</internalNodes>
      <leafValues>
        -2.1320253610610962e-001 2.0286533236503601e-001</leafValues></_>
    <_>
      <internalNodes>
        0 -1 107237 2.2047780454158783e-002</internalNodes>
      <leafValues>
        -8.6951516568660736e-002 4.1618785262107849e-001</leafValues></_>
    <_>
      <internalNodes>
        0 -1 118974 -2.5418330915272236e-004</internalNodes>
      <leafValues>
        -2.4175712466239929e-001 1.1287999153137207e-001</leafValues></_>
    <_>
      <internalNodes>
        0 -1 120158 -4.3620014912448823e-004</internalNodes>
      <leafValues>
        -1.9024054706096649e-001 1.8718706071376801e-001</leafValues></_>
    <_>
      <internalNodes>
        0 -1 119857 -7.8092388808727264e-002</internalNodes>
      <leafValues>
        3.1170126795768738e-001 -1.2180170416831970e-001</leafValues></_>
    <_>
      <internalNodes>
        0 -1 119635 -9.5501495525240898e-004</internalNodes>
      <leafValues>
        -2.5402277708053589e-001 1.4460821449756622e-001</leafValues></_>
    <_>
      <internalNodes>
        0 -1 111584 1.1560271959751844e-003</internalNodes>
      <leafValues>
        7.4174188077449799e-002 -3.6415648460388184e-001</leafValues></_>
    <_>
      <internalNodes>
        0 -1 125662 -2.3069292306900024e-002</internalNodes>
      <leafValues>
        1.8032604455947876e-001 -1.7128896713256836e-001</leafValues></_>
    <_>
      <internalNodes>
        0 -1 21560 1.1050461325794458e-003</internalNodes>
      <leafValues>
        -9.0153314173221588e-002 3.3280462026596069e-001</leafValues></_>
    <_>
      <internalNodes>
        0 -1 118630 4.4261704897508025e-004</internalNodes>
      <leafValues>
        1.0925963521003723e-001 -2.4438981711864471e-001</leafValues></_>
    <_>
      <internalNodes>
        0 -1 9299 -2.4991694092750549e-001</internalNodes>
      <leafValues>
        -6.4184576272964478e-001 5.0372857600450516e-002</leafValues></_>
    <_>
      <internalNodes>
        0 -1 105375 6.3560425769537687e-004</internalNodes>
      <leafValues>
        1.0630982369184494e-001 -2.4698251485824585e-001</leafValues></_>
    <_>
      <internalNodes>
        0 -1 11181 -2.5028452277183533e-002</internalNodes>
      <leafValues>
        2.8163790702819824e-001 -1.0257358849048615e-001</leafValues></_>
    <_>
      <internalNodes>
        0 -1 159359 1.5067185740917921e-003</internalNodes>
      <leafValues>
        -6.5510183572769165e-002 3.6136794090270996e-001</leafValues></_>
    <_>
      <internalNodes>
        0 -1 87576 5.9082848019897938e-004</internalNodes>
      <leafValues>
        1.3278526067733765e-001 -1.9235466420650482e-001</leafValues></_>
    <_>
      <internalNodes>
        0 -1 154699 -9.2068491503596306e-003</internalNodes>
      <leafValues>
        2.6538491249084473e-001 -9.6964210271835327e-002</leafValues></_>
    <_>
      <internalNodes>
        0 -1 104931 -2.5654651224613190e-002</internalNodes>
      <leafValues>
        2.4767230451107025e-001 -9.3016326427459717e-002</leafValues></_>
    <_>
      <internalNodes>
        0 -1 138276 -6.7745574051514268e-004</internalNodes>
      <leafValues>
        -2.7543732523918152e-001 1.0256496816873550e-001</leafValues></_>
    <_>
      <internalNodes>
        0 -1 139578 1.8435042351484299e-002</internalNodes>
      <leafValues>
        -1.3136345148086548e-001 1.8941162526607513e-001</leafValues></_>
    <_>
      <internalNodes>
        0 -1 89401 -1.7902575433254242e-002</internalNodes>
      <leafValues>
        2.2635553777217865e-001 -1.0420379787683487e-001</leafValues></_>
    <_>
      <internalNodes>
        0 -1 24333 2.4581274017691612e-002</internalNodes>
      <leafValues>
        -8.0267205834388733e-002 3.0435988306999207e-001</leafValues></_>
    <_>
      <internalNodes>
        0 -1 69382 -2.0274985581636429e-002</internalNodes>
      <leafValues>
        2.2254046797752380e-001 -1.1166176199913025e-001</leafValues></_>
    <_>
      <internalNodes>
        0 -1 131205 -3.0813430203124881e-004</internalNodes>
      <leafValues>
        -2.4558065831661224e-001 1.0216369479894638e-001</leafValues></_>
    <_>
      <internalNodes>
        0 -1 35925 1.9090440124273300e-002</internalNodes>
      <leafValues>
        -8.9811138808727264e-002 2.9538995027542114e-001</leafValues></_>
    <_>
      <internalNodes>
        0 -1 138461 3.6809188895858824e-004</internalNodes>
      <leafValues>
        1.2577524781227112e-001 -2.1635033190250397e-001</leafValues></_>
    <_>
      <internalNodes>
        0 -1 126105 -2.4327980645466596e-004</internalNodes>
      <leafValues>
        -1.6392669081687927e-001 1.4634470641613007e-001</leafValues></_>
    <_>
      <internalNodes>
        0 -1 11678 -2.5827292352914810e-002</internalNodes>
      <leafValues>
        2.0784035325050354e-001 -1.2577454745769501e-001</leafValues></_>
    <_>
      <internalNodes>
        0 -1 125797 -3.8306604255922139e-004</internalNodes>
      <leafValues>
        -2.0945696532726288e-001 1.1950735002756119e-001</leafValues></_>
    <_>
      <internalNodes>
        0 -1 151784 -8.6372910300269723e-004</internalNodes>
      <leafValues>
        3.4911167621612549e-001 -6.9391921162605286e-002</leafValues></_>
    <_>
      <internalNodes>
        0 -1 111066 6.6067458828911185e-004</internalNodes>
      <leafValues>
        8.6467348039150238e-002 -2.7732148766517639e-001</leafValues></_>
    <_>
      <internalNodes>
        0 -1 6427 -3.3139538764953613e-001</internalNodes>
      <leafValues>
        -7.7713263034820557e-001 3.2813921570777893e-002</leafValues></_>
    <_>
      <internalNodes>
        0 -1 17116 1.7005825042724609e-001</internalNodes>
      <leafValues>
        -1.0257109999656677e-001 2.4994160234928131e-001</leafValues></_>
    <_>
      <internalNodes>
        0 -1 112840 -8.0452242400497198e-004</internalNodes>
      <leafValues>
        -2.1386505663394928e-001 1.0602233558893204e-001</leafValues></_>
    <_>
      <internalNodes>
        0 -1 157931 8.9201807975769043e-002</internalNodes>
      <leafValues>
        2.6738658547401428e-002 -8.3382272720336914e-001</leafValues></_>
    <_>
      <internalNodes>
        0 -1 18801 7.2490656748414040e-004</internalNodes>
      <leafValues>
        -8.8689818978309631e-002 2.5682619214057922e-001</leafValues></_>
    <_>
      <internalNodes>
        0 -1 124693 6.9477856159210205e-003</internalNodes>
      <leafValues>
        3.1875059008598328e-002 -6.8852120637893677e-001</leafValues></_>
    <_>
      <internalNodes>
        0 -1 26655 6.6437259316444397e-002</internalNodes>
      <leafValues>
        -1.1072790622711182e-001 1.9689594209194183e-001</leafValues></_>
    <_>
      <internalNodes>
        0 -1 84967 1.7006270587444305e-002</internalNodes>
      <leafValues>
        -1.2618948519229889e-001 1.9591930508613586e-001</leafValues></_>
    <_>
      <internalNodes>
        0 -1 25098 -9.6080619841814041e-003</internalNodes>
      <leafValues>
        1.8787211179733276e-001 -1.1697151511907578e-001</leafValues></_>
    <_>
      <internalNodes>
        0 -1 154644 1.1944533325731754e-003</internalNodes>
      <leafValues>
        -6.1028089374303818e-002 3.4003308415412903e-001</leafValues></_>
    <_>
      <internalNodes>
        0 -1 108080 1.1223099194467068e-002</internalNodes>
      <leafValues>
        4.4525779783725739e-002 -5.4511272907257080e-001</leafValues></_>
    <_>
      <internalNodes>
        0 -1 21718 -2.0186927169561386e-002</internalNodes>
      <leafValues>
        2.3469498753547668e-001 -9.1869227588176727e-002</leafValues></_>
    <_>
      <internalNodes>
        0 -1 103160 1.9543069356586784e-004</internalNodes>
      <leafValues>
        1.2390243262052536e-001 -1.7897315323352814e-001</leafValues></_>
    <_>
      <internalNodes>
        0 -1 160627 3.6198473535478115e-003</internalNodes>
      <leafValues>
        -6.1121795326471329e-002 3.7430274486541748e-001</leafValues></_>
    <_>
      <internalNodes>
        0 -1 160563 -8.2103684544563293e-003</internalNodes>
      <leafValues>
        4.8810034990310669e-001 -4.1183687746524811e-002</leafValues></_>
    <_>
      <internalNodes>
        0 -1 120687 -4.1947048157453537e-003</internalNodes>
      <leafValues>
        -3.0098578333854675e-001 7.4349910020828247e-002</leafValues></_>
    <_>
      <internalNodes>
        0 -1 129420 -8.1439986824989319e-003</internalNodes>
      <leafValues>
        -5.0588321685791016e-001 3.7811905145645142e-002</leafValues></_>
    <_>
      <internalNodes>
        0 -1 3435 -3.3971138298511505e-002</internalNodes>
      <leafValues>
        2.5724971294403076e-001 -8.2494243979454041e-002</leafValues></_>
    <_>
      <internalNodes>
        0 -1 1468 4.1946206241846085e-002</internalNodes>
      <leafValues>
        -1.1577112972736359e-001 1.9440752267837524e-001</leafValues></_></weakClassifiers></stage4>
</opencv_storage>
