<?xml version="1.0"?>
<opencv_storage>
<stage7>
  <maxWeakCount>52</maxWeakCount>
  <stageThreshold>-7.8299158811569214e-001</stageThreshold>
  <weakClassifiers>
    <_>
      <internalNodes>
        0 -1 93578 -7.2087153792381287e-002</internalNodes>
      <leafValues>
        3.4930363297462463e-001 -1.8014185130596161e-001</leafValues></_>
    <_>
      <internalNodes>
        0 -1 6164 3.3496186137199402e-002</internalNodes>
      <leafValues>
        -1.8276035785675049e-001 2.2907698154449463e-001</leafValues></_>
    <_>
      <internalNodes>
        0 -1 106672 -2.2191891912370920e-003</internalNodes>
      <leafValues>
        5.3835320472717285e-001 -6.0237582772970200e-002</leafValues></_>
    <_>
      <internalNodes>
        0 -1 111066 8.3905569044873118e-004</internalNodes>
      <leafValues>
        6.4759783446788788e-002 -3.6367902159690857e-001</leafValues></_>
    <_>
      <internalNodes>
        0 -1 124674 -3.9439569809474051e-004</internalNodes>
      <leafValues>
        -2.9688102006912231e-001 1.2582822144031525e-001</leafValues></_>
    <_>
      <internalNodes>
        0 -1 21560 1.0970584116876125e-003</internalNodes>
      <leafValues>
        -1.0233723372220993e-001 3.5814428329467773e-001</leafValues></_>
    <_>
      <internalNodes>
        0 -1 127032 6.6198348999023438e-002</internalNodes>
      <leafValues>
        -9.4777464866638184e-002 3.7098252773284912e-001</leafValues></_>
    <_>
      <internalNodes>
        0 -1 50370 1.2712694704532623e-001</internalNodes>
      <leafValues>
        -1.1486124992370605e-001 2.6176542043685913e-001</leafValues></_>
    <_>
      <internalNodes>
        0 -1 19569 1.5275964979082346e-003</internalNodes>
      <leafValues>
        -4.4524595141410828e-002 5.0336545705795288e-001</leafValues></_>
    <_>
      <internalNodes>
        0 -1 143237 -1.5915334224700928e-002</internalNodes>
      <leafValues>
        3.7180829048156738e-001 -7.6318405568599701e-002</leafValues></_>
    <_>
      <internalNodes>
        0 -1 87234 -8.5290276911109686e-004</internalNodes>
      <leafValues>
        -2.4091188609600067e-001 1.1129522323608398e-001</leafValues></_>
    <_>
      <internalNodes>
        0 -1 18910 -2.4595465511083603e-002</internalNodes>
      <leafValues>
        3.6169403791427612e-001 -6.6819109022617340e-002</leafValues></_>
    <_>
      <internalNodes>
        0 -1 71314 1.4985380694270134e-002</internalNodes>
      <leafValues>
        -8.9498557150363922e-002 2.8921338915824890e-001</leafValues></_>
    <_>
      <internalNodes>
        0 -1 157267 -2.6100385002791882e-003</internalNodes>
      <leafValues>
        5.9244263172149658e-001 -3.8694981485605240e-002</leafValues></_>
    <_>
      <internalNodes>
        0 -1 118685 1.8570594256743789e-003</internalNodes>
      <leafValues>
        8.4722027182579041e-002 -3.3259278535842896e-001</leafValues></_>
    <_>
      <internalNodes>
        0 -1 126105 -2.7756922645494342e-004</internalNodes>
      <leafValues>
        -1.9307120144367218e-001 1.5818017721176147e-001</leafValues></_>
    <_>
      <internalNodes>
        0 -1 69676 1.3746334239840508e-002</internalNodes>
      <leafValues>
        -1.0560014098882675e-001 2.8706258535385132e-001</leafValues></_>
    <_>
      <internalNodes>
        0 -1 20262 -2.6764888316392899e-003</internalNodes>
      <leafValues>
        7.0140826702117920e-001 -4.0668975561857224e-002</leafValues></_>
    <_>
      <internalNodes>
        0 -1 68451 3.9681732654571533e-002</internalNodes>
      <leafValues>
        -7.5292296707630157e-002 3.2024616003036499e-001</leafValues></_>
    <_>
      <internalNodes>
        0 -1 146547 -6.0442183166742325e-003</internalNodes>
      <leafValues>
        1.4490860700607300e-001 -1.6220250725746155e-001</leafValues></_>
    <_>
      <internalNodes>
        0 -1 112825 -4.3624797835946083e-003</internalNodes>
      <leafValues>
        -4.4902408123016357e-001 5.6069914251565933e-002</leafValues></_>
    <_>
      <internalNodes>
        0 -1 139631 2.5645086169242859e-001</internalNodes>
      <leafValues>
        2.9451044276356697e-002 -6.8833899497985840e-001</leafValues></_>
    <_>
      <internalNodes>
        0 -1 117492 3.1893767300061882e-004</internalNodes>
      <leafValues>
        1.2687388062477112e-001 -1.9846655428409576e-001</leafValues></_>
    <_>
      <internalNodes>
        0 -1 90176 6.5320551395416260e-002</internalNodes>
      <leafValues>
        -7.8189209103584290e-002 3.2172206044197083e-001</leafValues></_>
    <_>
      <internalNodes>
        0 -1 10015 -3.4897024743258953e-003</internalNodes>
      <leafValues>
        4.4772547483444214e-001 -4.7485027462244034e-002</leafValues></_>
    <_>
      <internalNodes>
        0 -1 111014 -3.2122770790010691e-004</internalNodes>
      <leafValues>
        -2.5393214821815491e-001 1.0004944354295731e-001</leafValues></_>
    <_>
      <internalNodes>
        0 -1 102705 4.7943167737685144e-004</internalNodes>
      <leafValues>
        9.5566630363464355e-002 -2.5961861014366150e-001</leafValues></_>
    <_>
      <internalNodes>
        0 -1 81103 -3.2885529100894928e-002</internalNodes>
      <leafValues>
        3.7409085035324097e-001 -7.2850130498409271e-002</leafValues></_>
    <_>
      <internalNodes>
        0 -1 31863 1.3197625776228961e-005</internalNodes>
      <leafValues>
        -1.5458734333515167e-001 1.5977616608142853e-001</leafValues></_>
    <_>
      <internalNodes>
        0 -1 132782 -4.9205087125301361e-003</internalNodes>
      <leafValues>
        -3.4633815288543701e-001 6.0227669775485992e-002</leafValues></_>
    <_>
      <internalNodes>
        0 -1 122187 -7.2758451104164124e-002</internalNodes>
      <leafValues>
        3.2919326424598694e-001 -7.2131879627704620e-002</leafValues></_>
    <_>
      <internalNodes>
        0 -1 127632 -4.3820273131132126e-003</internalNodes>
      <leafValues>
        6.0677629709243774e-001 -3.9052832871675491e-002</leafValues></_>
    <_>
      <internalNodes>
        0 -1 137408 1.2974214041605592e-003</internalNodes>
      <leafValues>
        6.8512544035911560e-002 -3.7602385878562927e-001</leafValues></_>
    <_>
      <internalNodes>
        0 -1 30720 1.2521645426750183e-001</internalNodes>
      <leafValues>
        2.7787866070866585e-002 -7.7012115716934204e-001</leafValues></_>
    <_>
      <internalNodes>
        0 -1 162319 -3.9020241820253432e-004</internalNodes>
      <leafValues>
        -1.8077309429645538e-001 1.3310830295085907e-001</leafValues></_>
    <_>
      <internalNodes>
        0 -1 98397 1.4228906948119402e-003</internalNodes>
      <leafValues>
        -6.8513661623001099e-002 3.5346019268035889e-001</leafValues></_>
    <_>
      <internalNodes>
        0 -1 25646 -1.5166794881224632e-002</internalNodes>
      <leafValues>
        2.8042817115783691e-001 -7.7778734266757965e-002</leafValues></_>
    <_>
      <internalNodes>
        0 -1 39656 2.2832942008972168e-001</internalNodes>
      <leafValues>
        -7.3776625096797943e-002 3.0640253424644470e-001</leafValues></_>
    <_>
      <internalNodes>
        0 -1 104914 1.4887597411870956e-002</internalNodes>
      <leafValues>
        -1.1807964742183685e-001 2.0815019309520721e-001</leafValues></_>
    <_>
      <internalNodes>
        0 -1 119880 3.1914981082081795e-004</internalNodes>
      <leafValues>
        9.8853893578052521e-002 -2.4132028222084045e-001</leafValues></_>
    <_>
      <internalNodes>
        0 -1 125778 -2.7200286276638508e-003</internalNodes>
      <leafValues>
        -3.3386555314064026e-001 7.5590394437313080e-002</leafValues></_>
    <_>
      <internalNodes>
        0 -1 26675 8.2290582358837128e-002</internalNodes>
      <leafValues>
        -1.0141403973102570e-001 2.4933025240898132e-001</leafValues></_>
    <_>
      <internalNodes>
        0 -1 93956 -4.8137135803699493e-002</internalNodes>
      <leafValues>
        3.2707455754280090e-001 -7.9987339675426483e-002</leafValues></_>
    <_>
      <internalNodes>
        0 -1 161093 1.5546883223578334e-003</internalNodes>
      <leafValues>
        -5.4302766919136047e-002 4.1947951912879944e-001</leafValues></_>
    <_>
      <internalNodes>
        0 -1 161235 6.1966842040419579e-003</internalNodes>
      <leafValues>
        -6.8426616489887238e-002 3.3377182483673096e-001</leafValues></_>
    <_>
      <internalNodes>
        0 -1 41986 1.2695857882499695e-001</internalNodes>
      <leafValues>
        -8.1406541168689728e-002 3.2591336965560913e-001</leafValues></_>
    <_>
      <internalNodes>
        0 -1 57203 4.2863879352807999e-003</internalNodes>
      <leafValues>
        2.4659188464283943e-002 -1.</leafValues></_>
    <_>
      <internalNodes>
        0 -1 160490 5.9981490485370159e-003</internalNodes>
      <leafValues>
        -7.2382546961307526e-002 3.4151247143745422e-001</leafValues></_>
    <_>
      <internalNodes>
        0 -1 9357 -1.3280168175697327e-001</internalNodes>
      <leafValues>
        2.1160915493965149e-001 -1.0354147851467133e-001</leafValues></_>
    <_>
      <internalNodes>
        0 -1 127311 -4.9347523599863052e-004</internalNodes>
      <leafValues>
        -1.8034593760967255e-001 1.3399173319339752e-001</leafValues></_>
    <_>
      <internalNodes>
        0 -1 11152 2.1710988134145737e-002</internalNodes>
      <leafValues>
        -9.4016924500465393e-002 2.3740278184413910e-001</leafValues></_>
    <_>
      <internalNodes>
        0 -1 47048 1.1778234038501978e-003</internalNodes>
      <leafValues>
        -6.9112241268157959e-002 3.2776033878326416e-001</leafValues></_></weakClassifiers></stage7>
</opencv_storage>
