<?xml version="1.0"?>
<opencv_storage>
<stage5>
  <maxWeakCount>51</maxWeakCount>
  <stageThreshold>-3.5130923986434937e-001</stageThreshold>
  <weakClassifiers>
    <_>
      <internalNodes>
        0 -1 130943 -5.6893646251410246e-004</internalNodes>
      <leafValues>
        -1.8891170620918274e-001 2.7078384160995483e-001</leafValues></_>
    <_>
      <internalNodes>
        0 -1 125412 3.1607632990926504e-004</internalNodes>
      <leafValues>
        1.1538134515285492e-001 -3.6217156052589417e-001</leafValues></_>
    <_>
      <internalNodes>
        0 -1 125412 -2.1237268811091781e-004</internalNodes>
      <leafValues>
        -2.3919132351875305e-001 1.6808201372623444e-001</leafValues></_>
    <_>
      <internalNodes>
        0 -1 127086 2.6436775806359947e-004</internalNodes>
      <leafValues>
        9.6620932221412659e-002 -3.1341117620468140e-001</leafValues></_>
    <_>
      <internalNodes>
        0 -1 130941 3.9019793621264398e-004</internalNodes>
      <leafValues>
        1.4332091808319092e-001 -2.5117915868759155e-001</leafValues></_>
    <_>
      <internalNodes>
        0 -1 14228 2.4889515712857246e-002</internalNodes>
      <leafValues>
        -2.1056620776653290e-001 1.5211981534957886e-001</leafValues></_>
    <_>
      <internalNodes>
        0 -1 122282 -4.3551690876483917e-002</internalNodes>
      <leafValues>
        1.5224823355674744e-001 -1.7152716219425201e-001</leafValues></_>
    <_>
      <internalNodes>
        0 -1 127086 -2.4000951088964939e-004</internalNodes>
      <leafValues>
        -2.6620444655418396e-001 1.0282242298126221e-001</leafValues></_>
    <_>
      <internalNodes>
        0 -1 156414 7.7843561302870512e-004</internalNodes>
      <leafValues>
        -1.1848796159029007e-001 2.6308947801589966e-001</leafValues></_>
    <_>
      <internalNodes>
        0 -1 82525 -3.1930860131978989e-002</internalNodes>
      <leafValues>
        3.8881862163543701e-001 -4.6103846281766891e-002</leafValues></_>
    <_>
      <internalNodes>
        0 -1 119341 -3.1241908436641097e-004</internalNodes>
      <leafValues>
        -1.7985834181308746e-001 1.3971038162708282e-001</leafValues></_>
    <_>
      <internalNodes>
        0 -1 14255 1.9186493754386902e-001</internalNodes>
      <leafValues>
        4.5591935515403748e-002 -7.0288670063018799e-001</leafValues></_>
    <_>
      <internalNodes>
        0 -1 132550 -4.2538120760582387e-004</internalNodes>
      <leafValues>
        -2.9557874798774719e-001 8.9846946299076080e-002</leafValues></_>
    <_>
      <internalNodes>
        0 -1 35408 8.9506991207599640e-004</internalNodes>
      <leafValues>
        -9.6938788890838623e-002 2.8425049781799316e-001</leafValues></_>
    <_>
      <internalNodes>
        0 -1 118677 -3.1356880208477378e-004</internalNodes>
      <leafValues>
        -2.1722523868083954e-001 1.3392737507820129e-001</leafValues></_>
    <_>
      <internalNodes>
        0 -1 10562 1.5228271950036287e-003</internalNodes>
      <leafValues>
        -8.2389667630195618e-002 3.6950227618217468e-001</leafValues></_>
    <_>
      <internalNodes>
        0 -1 153484 -3.4638881683349609e-002</internalNodes>
      <leafValues>
        3.0309766530990601e-001 -7.2620399296283722e-002</leafValues></_>
    <_>
      <internalNodes>
        0 -1 137853 2.8894041315652430e-004</internalNodes>
      <leafValues>
        7.0929221808910370e-002 -3.1817278265953064e-001</leafValues></_>
    <_>
      <internalNodes>
        0 -1 111808 3.5646246396936476e-004</internalNodes>
      <leafValues>
        1.0493674129247665e-001 -2.4204321205615997e-001</leafValues></_>
    <_>
      <internalNodes>
        0 -1 104437 -4.1965401032939553e-004</internalNodes>
      <leafValues>
        -1.9939039647579193e-001 1.2723368406295776e-001</leafValues></_>
    <_>
      <internalNodes>
        0 -1 17527 2.7373388409614563e-002</internalNodes>
      <leafValues>
        -1.7164561152458191e-001 1.3890951871871948e-001</leafValues></_>
    <_>
      <internalNodes>
        0 -1 110189 6.6757919266819954e-003</internalNodes>
      <leafValues>
        -1.2598739564418793e-001 2.2789160907268524e-001</leafValues></_>
    <_>
      <internalNodes>
        0 -1 126389 -6.2188366428017616e-004</internalNodes>
      <leafValues>
        -2.0842011272907257e-001 1.3214008510112762e-001</leafValues></_>
    <_>
      <internalNodes>
        0 -1 97098 -3.4755512024275959e-004</internalNodes>
      <leafValues>
        -1.8120081722736359e-001 1.2059427052736282e-001</leafValues></_>
    <_>
      <internalNodes>
        0 -1 117309 -1.6778150573372841e-002</internalNodes>
      <leafValues>
        1.0409627109766006e-001 -2.4172642827033997e-001</leafValues></_>
    <_>
      <internalNodes>
        0 -1 96786 3.4654373303055763e-004</internalNodes>
      <leafValues>
        9.8305791616439819e-002 -2.3686707019805908e-001</leafValues></_>
    <_>
      <internalNodes>
        0 -1 7662 -4.7792345285415649e-002</internalNodes>
      <leafValues>
        2.8273996710777283e-001 -9.5835149288177490e-002</leafValues></_>
    <_>
      <internalNodes>
        0 -1 72949 1.1933471262454987e-001</internalNodes>
      <leafValues>
        -5.7063337415456772e-002 3.8214588165283203e-001</leafValues></_>
    <_>
      <internalNodes>
        0 -1 8138 1.4799577184021473e-003</internalNodes>
      <leafValues>
        -6.6002756357192993e-002 3.9248949289321899e-001</leafValues></_>
    <_>
      <internalNodes>
        0 -1 117433 3.4686340950429440e-004</internalNodes>
      <leafValues>
        1.1287853121757507e-001 -2.2434327006340027e-001</leafValues></_>
    <_>
      <internalNodes>
        0 -1 159496 1.1505306465551257e-003</internalNodes>
      <leafValues>
        -6.5140418708324432e-002 3.9715832471847534e-001</leafValues></_>
    <_>
      <internalNodes>
        0 -1 18951 1.4158146455883980e-002</internalNodes>
      <leafValues>
        -1.0258466750383377e-001 2.3897758126258850e-001</leafValues></_>
    <_>
      <internalNodes>
        0 -1 1109 8.8694202713668346e-004</internalNodes>
      <leafValues>
        1.0974283516407013e-001 -2.5745195150375366e-001</leafValues></_>
    <_>
      <internalNodes>
        0 -1 61187 5.2144374698400497e-002</internalNodes>
      <leafValues>
        -4.3150689452886581e-002 6.0052859783172607e-001</leafValues></_>
    <_>
      <internalNodes>
        0 -1 57343 1.7017774283885956e-002</internalNodes>
      <leafValues>
        -9.5639608800411224e-002 2.2874304652214050e-001</leafValues></_>
    <_>
      <internalNodes>
        0 -1 142865 -5.2769284229725599e-004</internalNodes>
      <leafValues>
        -1.8527762591838837e-001 1.2092351913452148e-001</leafValues></_>
    <_>
      <internalNodes>
        0 -1 159494 1.5302093233913183e-003</internalNodes>
      <leafValues>
        -7.0181511342525482e-002 3.4619042277336121e-001</leafValues></_>
    <_>
      <internalNodes>
        0 -1 159555 -5.4033920168876648e-003</internalNodes>
      <leafValues>
        6.8043935298919678e-001 -2.8880951926112175e-002</leafValues></_>
    <_>
      <internalNodes>
        0 -1 142865 1.5436502872034907e-003</internalNodes>
      <leafValues>
        5.9446047991514206e-002 -4.3623217940330505e-001</leafValues></_>
    <_>
      <internalNodes>
        0 -1 111473 -1.0389631614089012e-002</internalNodes>
      <leafValues>
        -6.1563080549240112e-001 2.8516078367829323e-002</leafValues></_>
    <_>
      <internalNodes>
        0 -1 160405 7.6225921511650085e-003</internalNodes>
      <leafValues>
        -5.8723472058773041e-002 3.7048414349555969e-001</leafValues></_>
    <_>
      <internalNodes>
        0 -1 133748 3.2495311461389065e-004</internalNodes>
      <leafValues>
        1.0797581821680069e-001 -1.9961857795715332e-001</leafValues></_>
    <_>
      <internalNodes>
        0 -1 155085 2.0729366224259138e-003</internalNodes>
      <leafValues>
        -3.7490028887987137e-002 5.3514879941940308e-001</leafValues></_>
    <_>
      <internalNodes>
        0 -1 136840 9.2400033026933670e-003</internalNodes>
      <leafValues>
        5.7372935116291046e-002 -4.1198787093162537e-001</leafValues></_>
    <_>
      <internalNodes>
        0 -1 106594 -8.6270272731781006e-003</internalNodes>
      <leafValues>
        3.2522574067115784e-001 -6.9167643785476685e-002</leafValues></_>
    <_>
      <internalNodes>
        0 -1 25598 1.7054814845323563e-002</internalNodes>
      <leafValues>
        -1.0472550243139267e-001 2.1978443861007690e-001</leafValues></_>
    <_>
      <internalNodes>
        0 -1 154039 -7.4352910742163658e-003</internalNodes>
      <leafValues>
        1.6990114748477936e-001 -1.3122446835041046e-001</leafValues></_>
    <_>
      <internalNodes>
        0 -1 139840 -4.5922823250293732e-002</internalNodes>
      <leafValues>
        3.0814874172210693e-001 -8.6120463907718658e-002</leafValues></_>
    <_>
      <internalNodes>
        0 -1 146883 9.4704236835241318e-003</internalNodes>
      <leafValues>
        4.7751773148775101e-002 -5.1971644163131714e-001</leafValues></_>
    <_>
      <internalNodes>
        0 -1 126860 2.5414762785658240e-004</internalNodes>
      <leafValues>
        9.5926746726036072e-002 -2.1754895150661469e-001</leafValues></_>
    <_>
      <internalNodes>
        0 -1 112258 7.9436376690864563e-003</internalNodes>
      <leafValues>
        -6.1593528836965561e-002 3.5725781321525574e-001</leafValues></_></weakClassifiers></stage5>
</opencv_storage>
