<?xml version="1.0"?>
<opencv_storage>
<stage11>
  <maxWeakCount>56</maxWeakCount>
  <stageThreshold>-3.2277068495750427e-001</stageThreshold>
  <weakClassifiers>
    <_>
      <internalNodes>
        0 -1 131258 4.1753344703465700e-004</internalNodes>
      <leafValues>
        2.4692738056182861e-001 -2.0000000298023224e-001</leafValues></_>
    <_>
      <internalNodes>
        0 -1 137086 3.3701313077472150e-004</internalNodes>
      <leafValues>
        9.5063865184783936e-002 -3.5671925544738770e-001</leafValues></_>
    <_>
      <internalNodes>
        0 -1 130592 3.6120560253039002e-004</internalNodes>
      <leafValues>
        1.3725745677947998e-001 -1.9059510529041290e-001</leafValues></_>
    <_>
      <internalNodes>
        0 -1 142704 4.4584611896425486e-004</internalNodes>
      <leafValues>
        7.4351206421852112e-002 -2.9009902477264404e-001</leafValues></_>
    <_>
      <internalNodes>
        0 -1 129870 2.1958077326416969e-002</internalNodes>
      <leafValues>
        -2.8635518625378609e-002 5.9043729305267334e-001</leafValues></_>
    <_>
      <internalNodes>
        0 -1 124341 -1.1956780326727312e-005</internalNodes>
      <leafValues>
        8.3470813930034637e-002 -2.8550282120704651e-001</leafValues></_>
    <_>
      <internalNodes>
        0 -1 125434 -1.8456317484378815e-003</internalNodes>
      <leafValues>
        -3.4971067309379578e-001 6.5619602799415588e-002</leafValues></_>
    <_>
      <internalNodes>
        0 -1 34906 1.1424710974097252e-003</internalNodes>
      <leafValues>
        -8.1822477281093597e-002 3.2131829857826233e-001</leafValues></_>
    <_>
      <internalNodes>
        0 -1 142662 -2.4161057081073523e-004</internalNodes>
      <leafValues>
        -1.9958321750164032e-001 1.0819784551858902e-001</leafValues></_>
    <_>
      <internalNodes>
        0 -1 46574 9.9572772160172462e-004</internalNodes>
      <leafValues>
        -6.2564574182033539e-002 3.2433536648750305e-001</leafValues></_>
    <_>
      <internalNodes>
        0 -1 118414 3.4893655683845282e-003</internalNodes>
      <leafValues>
        -1.5353894233703613e-001 1.4750897884368896e-001</leafValues></_>
    <_>
      <internalNodes>
        0 -1 22208 -1.1708762496709824e-002</internalNodes>
      <leafValues>
        2.5460255146026611e-001 -1.1603274941444397e-001</leafValues></_>
    <_>
      <internalNodes>
        0 -1 85916 -4.2831510305404663e-002</internalNodes>
      <leafValues>
        1.6526760160923004e-001 -1.4983119070529938e-001</leafValues></_>
    <_>
      <internalNodes>
        0 -1 106513 -1.7572537064552307e-002</internalNodes>
      <leafValues>
        1.7773503065109253e-001 -1.2338502705097198e-001</leafValues></_>
    <_>
      <internalNodes>
        0 -1 132773 -6.8764016032218933e-003</internalNodes>
      <leafValues>
        -5.3257143497467041e-001 3.9203964173793793e-002</leafValues></_>
    <_>
      <internalNodes>
        0 -1 159105 1.1326737003400922e-003</internalNodes>
      <leafValues>
        -7.5122132897377014e-002 2.8403282165527344e-001</leafValues></_>
    <_>
      <internalNodes>
        0 -1 97396 -2.7006681193597615e-004</internalNodes>
      <leafValues>
        -1.6740711033344269e-001 1.2585993111133575e-001</leafValues></_>
    <_>
      <internalNodes>
        0 -1 96463 -4.9057882279157639e-004</internalNodes>
      <leafValues>
        -1.9280374050140381e-001 1.2116155028343201e-001</leafValues></_>
    <_>
      <internalNodes>
        0 -1 86432 -1.1064129881560802e-002</internalNodes>
      <leafValues>
        1.5654018521308899e-001 -1.7672048509120941e-001</leafValues></_>
    <_>
      <internalNodes>
        0 -1 105399 -3.1221026438288391e-004</internalNodes>
      <leafValues>
        -1.5780681371688843e-001 1.3612166047096252e-001</leafValues></_>
    <_>
      <internalNodes>
        0 -1 120158 1.1140658752992749e-003</internalNodes>
      <leafValues>
        5.4696064442396164e-002 -4.2132064700126648e-001</leafValues></_>
    <_>
      <internalNodes>
        0 -1 10060 4.2660841718316078e-003</internalNodes>
      <leafValues>
        -1.0598009079694748e-001 2.0603464543819427e-001</leafValues></_>
    <_>
      <internalNodes>
        0 -1 50179 -2.5723421573638916e-001</internalNodes>
      <leafValues>
        -3.3581686019897461e-001 6.0728102922439575e-002</leafValues></_>
    <_>
      <internalNodes>
        0 -1 132752 1.1956780326727312e-005</internalNodes>
      <leafValues>
        -1.1519474536180496e-001 1.8250009417533875e-001</leafValues></_>
    <_>
      <internalNodes>
        0 -1 117862 -2.6959436945617199e-004</internalNodes>
      <leafValues>
        -2.7364426851272583e-001 7.8195922076702118e-002</leafValues></_>
    <_>
      <internalNodes>
        0 -1 157401 -6.6260347375646234e-004</internalNodes>
      <leafValues>
        2.5870430469512939e-001 -7.8757084906101227e-002</leafValues></_>
    <_>
      <internalNodes>
        0 -1 93694 -3.1593651510775089e-003</internalNodes>
      <leafValues>
        -5.5954802036285400e-001 3.9910983294248581e-002</leafValues></_>
    <_>
      <internalNodes>
        0 -1 94708 1.6284039884340018e-004</internalNodes>
      <leafValues>
        1.3155359029769897e-001 -1.7649672925472260e-001</leafValues></_>
    <_>
      <internalNodes>
        0 -1 122254 1.9925436004996300e-002</internalNodes>
      <leafValues>
        -6.3165560364723206e-002 3.1406503915786743e-001</leafValues></_>
    <_>
      <internalNodes>
        0 -1 34480 5.2559580653905869e-003</internalNodes>
      <leafValues>
        -1.1941438168287277e-001 1.7308154702186584e-001</leafValues></_>
    <_>
      <internalNodes>
        0 -1 9040 -6.5778493881225586e-003</internalNodes>
      <leafValues>
        3.5667148232460022e-001 -5.7681761682033539e-002</leafValues></_>
    <_>
      <internalNodes>
        0 -1 117615 -1.0222203563898802e-003</internalNodes>
      <leafValues>
        -2.5953820347785950e-001 7.7561572194099426e-002</leafValues></_>
    <_>
      <internalNodes>
        0 -1 159597 1.0952850570902228e-003</internalNodes>
      <leafValues>
        -7.8242294490337372e-002 2.5205054879188538e-001</leafValues></_>
    <_>
      <internalNodes>
        0 -1 138999 -3.2217958942055702e-003</internalNodes>
      <leafValues>
        4.9168115854263306e-001 -4.2744293808937073e-002</leafValues></_>
    <_>
      <internalNodes>
        0 -1 137858 3.8033694727346301e-004</internalNodes>
      <leafValues>
        7.8410893678665161e-002 -2.7802199125289917e-001</leafValues></_>
    <_>
      <internalNodes>
        0 -1 132315 1.1413607353460975e-005</internalNodes>
      <leafValues>
        -1.0668931901454926e-001 2.1172508597373962e-001</leafValues></_>
    <_>
      <internalNodes>
        0 -1 160836 -6.6143311560153961e-003</internalNodes>
      <leafValues>
        2.0640933513641357e-001 -9.0335957705974579e-002</leafValues></_>
    <_>
      <internalNodes>
        0 -1 124542 -3.5109673626720905e-003</internalNodes>
      <leafValues>
        1.0487493127584457e-001 -1.9528268277645111e-001</leafValues></_>
    <_>
      <internalNodes>
        0 -1 113581 -6.0638850554823875e-003</internalNodes>
      <leafValues>
        8.1892657279968262e-001 -2.3523192852735519e-002</leafValues></_>
    <_>
      <internalNodes>
        0 -1 119594 3.7945617805235088e-004</internalNodes>
      <leafValues>
        7.8066900372505188e-002 -2.7760851383209229e-001</leafValues></_>
    <_>
      <internalNodes>
        0 -1 124742 8.3273295313119888e-003</internalNodes>
      <leafValues>
        -8.5037998855113983e-002 2.3632586002349854e-001</leafValues></_>
    <_>
      <internalNodes>
        0 -1 104742 2.4781428510323167e-004</internalNodes>
      <leafValues>
        9.0351350605487823e-002 -2.3633648455142975e-001</leafValues></_>
    <_>
      <internalNodes>
        0 -1 88230 -2.7505052275955677e-004</internalNodes>
      <leafValues>
        -1.7494225502014160e-001 1.1366958916187286e-001</leafValues></_>
    <_>
      <internalNodes>
        0 -1 20937 1.2113534467061982e-005</internalNodes>
      <leafValues>
        -1.3514128327369690e-001 1.5143938362598419e-001</leafValues></_>
    <_>
      <internalNodes>
        0 -1 69027 -5.1165547221899033e-002</internalNodes>
      <leafValues>
        3.6999827623367310e-001 -4.9710329622030258e-002</leafValues></_>
    <_>
      <internalNodes>
        0 -1 96824 3.7790588103234768e-003</internalNodes>
      <leafValues>
        -3.5730406641960144e-002 5.3669548034667969e-001</leafValues></_>
    <_>
      <internalNodes>
        0 -1 79893 1.7594129312783480e-003</internalNodes>
      <leafValues>
        -5.7425178587436676e-002 3.4837961196899414e-001</leafValues></_>
    <_>
      <internalNodes>
        0 -1 53560 -1.2507981409726199e-005</internalNodes>
      <leafValues>
        1.6611850261688232e-001 -1.2147955596446991e-001</leafValues></_>
    <_>
      <internalNodes>
        0 -1 147401 -6.0443731490522623e-004</internalNodes>
      <leafValues>
        -2.3433670401573181e-001 8.7100535631179810e-002</leafValues></_>
    <_>
      <internalNodes>
        0 -1 133281 3.1537436880171299e-003</internalNodes>
      <leafValues>
        6.5984204411506653e-002 -3.1193888187408447e-001</leafValues></_>
    <_>
      <internalNodes>
        0 -1 143829 8.0305070150643587e-004</internalNodes>
      <leafValues>
        -8.8398858904838562e-002 2.3175667226314545e-001</leafValues></_>
    <_>
      <internalNodes>
        0 -1 138901 -3.2569076865911484e-003</internalNodes>
      <leafValues>
        -3.2418602705001831e-001 6.5383121371269226e-002</leafValues></_>
    <_>
      <internalNodes>
        0 -1 12821 1.5431558713316917e-003</internalNodes>
      <leafValues>
        -1.0473190993070602e-001 1.8394519388675690e-001</leafValues></_>
    <_>
      <internalNodes>
        0 -1 118629 -1.2184966180939227e-005</internalNodes>
      <leafValues>
        1.5374951064586639e-001 -1.3233825564384460e-001</leafValues></_>
    <_>
      <internalNodes>
        0 -1 121423 1.5857122838497162e-002</internalNodes>
      <leafValues>
        3.0381822958588600e-002 -7.1365439891815186e-001</leafValues></_>
    <_>
      <internalNodes>
        0 -1 48974 9.3152723275125027e-004</internalNodes>
      <leafValues>
        -8.2732260227203369e-002 2.5340080261230469e-001</leafValues></_></weakClassifiers></stage11>
</opencv_storage>
