<?xml version="1.0"?>
<opencv_storage>
<stage13>
  <maxWeakCount>62</maxWeakCount>
  <stageThreshold>-3.0088892579078674e-001</stageThreshold>
  <weakClassifiers>
    <_>
      <internalNodes>
        0 -1 137136 5.7821825612336397e-004</internalNodes>
      <leafValues>
        2.2275862097740173e-001 -2.4333333969116211e-001</leafValues></_>
    <_>
      <internalNodes>
        0 -1 131209 4.4943607645109296e-004</internalNodes>
      <leafValues>
        8.6541056632995605e-002 -3.3627450466156006e-001</leafValues></_>
    <_>
      <internalNodes>
        0 -1 668 2.1686251461505890e-001</internalNodes>
      <leafValues>
        4.1289806365966797e-002 -6.9663447141647339e-001</leafValues></_>
    <_>
      <internalNodes>
        0 -1 118656 2.2822790779173374e-003</internalNodes>
      <leafValues>
        8.2409776747226715e-002 -3.3672505617141724e-001</leafValues></_>
    <_>
      <internalNodes>
        0 -1 127845 -2.4886960163712502e-003</internalNodes>
      <leafValues>
        5.2571678161621094e-001 -3.8201309740543365e-002</leafValues></_>
    <_>
      <internalNodes>
        0 -1 127845 -2.4771727621555328e-003</internalNodes>
      <leafValues>
        -8.1531685590744019e-001 -1.8789030611515045e-002</leafValues></_>
    <_>
      <internalNodes>
        0 -1 127845 -2.4597924202680588e-003</internalNodes>
      <leafValues>
        7.2282004356384277e-001 1.8693735823035240e-002</leafValues></_>
    <_>
      <internalNodes>
        0 -1 130562 -2.0056567154824734e-003</internalNodes>
      <leafValues>
        2.6420895010232925e-002 -3.4509184956550598e-001</leafValues></_>
    <_>
      <internalNodes>
        0 -1 132315 -2.7994293486699462e-004</internalNodes>
      <leafValues>
        -1.9085563719272614e-001 1.1209452897310257e-001</leafValues></_>
    <_>
      <internalNodes>
        0 -1 131516 1.1413607353460975e-005</internalNodes>
      <leafValues>
        -1.0802179574966431e-001 1.9036315381526947e-001</leafValues></_>
    <_>
      <internalNodes>
        0 -1 143354 -3.7499808240681887e-004</internalNodes>
      <leafValues>
        -1.9323018193244934e-001 1.0276394337415695e-001</leafValues></_>
    <_>
      <internalNodes>
        0 -1 120568 4.0864630136638880e-004</internalNodes>
      <leafValues>
        7.3454916477203369e-002 -2.2629994153976440e-001</leafValues></_>
    <_>
      <internalNodes>
        0 -1 860 -1.6407494246959686e-001</internalNodes>
      <leafValues>
        -2.7074131369590759e-001 8.9884959161281586e-002</leafValues></_>
    <_>
      <internalNodes>
        0 -1 22147 7.8378233592957258e-004</internalNodes>
      <leafValues>
        -1.0573824495077133e-001 1.7742656171321869e-001</leafValues></_>
    <_>
      <internalNodes>
        0 -1 94730 4.6114996075630188e-003</internalNodes>
      <leafValues>
        2.0242638885974884e-002 -5.2573752403259277e-001</leafValues></_>
    <_>
      <internalNodes>
        0 -1 94227 -6.9182284642010927e-004</internalNodes>
      <leafValues>
        -2.4712102115154266e-001 8.4936551749706268e-002</leafValues></_>
    <_>
      <internalNodes>
        0 -1 121245 4.1751875542104244e-003</internalNodes>
      <leafValues>
        -4.6648312360048294e-002 4.2231953144073486e-001</leafValues></_>
    <_>
      <internalNodes>
        0 -1 147404 -1.2162453458586242e-005</internalNodes>
      <leafValues>
        1.5802018344402313e-001 -1.2635271251201630e-001</leafValues></_>
    <_>
      <internalNodes>
        0 -1 46579 2.5940497871488333e-003</internalNodes>
      <leafValues>
        -4.7690097242593765e-002 3.4507039189338684e-001</leafValues></_>
    <_>
      <internalNodes>
        0 -1 127631 -3.6224438808858395e-003</internalNodes>
      <leafValues>
        3.6289149522781372e-001 -5.8960463851690292e-002</leafValues></_>
    <_>
      <internalNodes>
        0 -1 49204 -7.8793354332447052e-003</internalNodes>
      <leafValues>
        1.3624320924282074e-001 -1.4610494673252106e-001</leafValues></_>
    <_>
      <internalNodes>
        0 -1 136517 -2.6232693344354630e-003</internalNodes>
      <leafValues>
        -3.7449321150779724e-001 5.3264889866113663e-002</leafValues></_>
    <_>
      <internalNodes>
        0 -1 154571 -1.3223338872194290e-002</internalNodes>
      <leafValues>
        3.1012570858001709e-001 -6.3917569816112518e-002</leafValues></_>
    <_>
      <internalNodes>
        0 -1 157109 1.8088155193254352e-003</internalNodes>
      <leafValues>
        -7.5604356825351715e-002 2.7827975153923035e-001</leafValues></_>
    <_>
      <internalNodes>
        0 -1 39690 1.6565358638763428e-001</internalNodes>
      <leafValues>
        -9.9922500550746918e-002 1.9274370372295380e-001</leafValues></_>
    <_>
      <internalNodes>
        0 -1 130887 -2.8780085267499089e-004</internalNodes>
      <leafValues>
        -2.1851626038551331e-001 8.8073879480361938e-002</leafValues></_>
    <_>
      <internalNodes>
        0 -1 124555 3.1762931495904922e-002</internalNodes>
      <leafValues>
        -4.7064799815416336e-002 5.4705917835235596e-001</leafValues></_>
    <_>
      <internalNodes>
        0 -1 150338 5.9879961190745234e-004</internalNodes>
      <leafValues>
        9.9825248122215271e-002 -2.4187126755714417e-001</leafValues></_>
    <_>
      <internalNodes>
        0 -1 160820 1.1371873551979661e-003</internalNodes>
      <leafValues>
        -7.4929408729076385e-002 2.5746569037437439e-001</leafValues></_>
    <_>
      <internalNodes>
        0 -1 112804 -1.2094198609702289e-005</internalNodes>
      <leafValues>
        1.4831615984439850e-001 -1.2919509410858154e-001</leafValues></_>
    <_>
      <internalNodes>
        0 -1 111834 -5.3185806609690189e-003</internalNodes>
      <leafValues>
        -7.0409411191940308e-001 2.8137460350990295e-002</leafValues></_>
    <_>
      <internalNodes>
        0 -1 109488 -1.2077081948518753e-002</internalNodes>
      <leafValues>
        8.5120931267738342e-002 -2.3597888648509979e-001</leafValues></_>
    <_>
      <internalNodes>
        0 -1 34906 1.9063781946897507e-003</internalNodes>
      <leafValues>
        -4.8047058284282684e-002 3.9810329675674438e-001</leafValues></_>
    <_>
      <internalNodes>
        0 -1 58122 1.2780983524862677e-005</internalNodes>
      <leafValues>
        -1.4388386905193329e-001 1.4515803754329681e-001</leafValues></_>
    <_>
      <internalNodes>
        0 -1 49769 1.0674300789833069e-001</internalNodes>
      <leafValues>
        2.9513567686080933e-002 -6.8502628803253174e-001</leafValues></_>
    <_>
      <internalNodes>
        0 -1 64032 7.6065547764301300e-002</internalNodes>
      <leafValues>
        -5.4594889283180237e-002 4.5799556374549866e-001</leafValues></_>
    <_>
      <internalNodes>
        0 -1 111013 2.1114409901201725e-004</internalNodes>
      <leafValues>
        8.8396757841110229e-002 -2.3117582499980927e-001</leafValues></_>
    <_>
      <internalNodes>
        0 -1 119640 1.5143544878810644e-003</internalNodes>
      <leafValues>
        4.8704832792282104e-002 -4.0172806382179260e-001</leafValues></_>
    <_>
      <internalNodes>
        0 -1 155137 6.8907544482499361e-004</internalNodes>
      <leafValues>
        -9.1311275959014893e-002 2.2860443592071533e-001</leafValues></_>
    <_>
      <internalNodes>
        0 -1 160718 -2.1934304386377335e-003</internalNodes>
      <leafValues>
        2.0762598514556885e-001 -1.0159696638584137e-001</leafValues></_>
    <_>
      <internalNodes>
        0 -1 134270 8.8599855080246925e-003</internalNodes>
      <leafValues>
        4.5215137302875519e-002 -4.2797610163688660e-001</leafValues></_>
    <_>
      <internalNodes>
        0 -1 128208 9.8501574248075485e-003</internalNodes>
      <leafValues>
        -7.2769530117511749e-002 2.9649096727371216e-001</leafValues></_>
    <_>
      <internalNodes>
        0 -1 17177 1.1634477414190769e-003</internalNodes>
      <leafValues>
        -6.5855726599693298e-002 3.0031436681747437e-001</leafValues></_>
    <_>
      <internalNodes>
        0 -1 25782 3.2062139362096786e-003</internalNodes>
      <leafValues>
        -1.2259250879287720e-001 1.5979270637035370e-001</leafValues></_>
    <_>
      <internalNodes>
        0 -1 95285 -3.4725435078144073e-002</internalNodes>
      <leafValues>
        -6.5699017047882080e-001 2.6025576516985893e-002</leafValues></_>
    <_>
      <internalNodes>
        0 -1 141626 1.0757372365333140e-005</internalNodes>
      <leafValues>
        -1.3865675032138824e-001 1.3405953347682953e-001</leafValues></_>
    <_>
      <internalNodes>
        0 -1 109656 1.2888322089565918e-005</internalNodes>
      <leafValues>
        -1.3830615580081940e-001 1.3199740648269653e-001</leafValues></_>
    <_>
      <internalNodes>
        0 -1 111066 -5.4562633158639073e-004</internalNodes>
      <leafValues>
        -2.3718415200710297e-001 7.8808642923831940e-002</leafValues></_>
    <_>
      <internalNodes>
        0 -1 93790 5.2290200255811214e-004</internalNodes>
      <leafValues>
        1.1516787856817245e-001 -1.8195033073425293e-001</leafValues></_>
    <_>
      <internalNodes>
        0 -1 81170 -3.2317996025085449e-002</internalNodes>
      <leafValues>
        3.7583318352699280e-001 -6.4411103725433350e-002</leafValues></_>
    <_>
      <internalNodes>
        0 -1 99950 6.9931114558130503e-004</internalNodes>
      <leafValues>
        -9.0942002832889557e-002 2.3726759850978851e-001</leafValues></_>
    <_>
      <internalNodes>
        0 -1 117919 -5.3916807519271970e-004</internalNodes>
      <leafValues>
        -2.6099663972854614e-001 7.7455572783946991e-002</leafValues></_>
    <_>
      <internalNodes>
        0 -1 106278 1.3610660098493099e-003</internalNodes>
      <leafValues>
        -6.6662795841693878e-002 2.9793143272399902e-001</leafValues></_>
    <_>
      <internalNodes>
        0 -1 28164 2.8765863180160522e-001</internalNodes>
      <leafValues>
        -3.4097451716661453e-002 5.8969390392303467e-001</leafValues></_>
    <_>
      <internalNodes>
        0 -1 148303 7.7858730219304562e-004</internalNodes>
      <leafValues>
        -7.1927115321159363e-002 2.4577859044075012e-001</leafValues></_>
    <_>
      <internalNodes>
        0 -1 155959 1.2066564522683620e-005</internalNodes>
      <leafValues>
        -1.2111750990152359e-001 1.5204320847988129e-001</leafValues></_>
    <_>
      <internalNodes>
        0 -1 93900 -3.3275142312049866e-002</internalNodes>
      <leafValues>
        3.7493324279785156e-001 -5.3363285958766937e-002</leafValues></_>
    <_>
      <internalNodes>
        0 -1 143745 1.1114887893199921e-003</internalNodes>
      <leafValues>
        1.1888284981250763e-001 -1.6248100996017456e-001</leafValues></_>
    <_>
      <internalNodes>
        0 -1 25799 -1.3582919724285603e-002</internalNodes>
      <leafValues>
        1.7050603032112122e-001 -1.1063293367624283e-001</leafValues></_>
    <_>
      <internalNodes>
        0 -1 106642 -1.2757484801113605e-002</internalNodes>
      <leafValues>
        2.3866403102874756e-001 -7.7211961150169373e-002</leafValues></_>
    <_>
      <internalNodes>
        0 -1 130172 -2.0681050955317914e-004</internalNodes>
      <leafValues>
        -1.9749084115028381e-001 8.8247410953044891e-002</leafValues></_>
    <_>
      <internalNodes>
        0 -1 129519 -4.1202164720743895e-004</internalNodes>
      <leafValues>
        -1.7355047166347504e-001 1.0383769124746323e-001</leafValues></_></weakClassifiers></stage13>
</opencv_storage>
